TRT-6001-EntropyCalibration2
data: 3caa54fc
mobilenetv20_features_conv0_fwd: 3e0263e1
mobilenetv20_features_batchnorm0_fwd: 3ca3d874
mobilenetv20_features_relu0_fwd: 3cd360c7
mobilenetv20_features_linearbottleneck0_conv0_fwd: 3cdba0a1
mobilenetv20_features_linearbottleneck0_batchnorm0_fwd: 3c456aef
mobilenetv20_features_linearbottleneck0_relu0_fwd: 3c456aef
mobilenetv20_features_linearbottleneck0_conv1_fwd: 3dca58e0
mobilenetv20_features_linearbottleneck0_batchnorm1_fwd: 3ca9d0bd
mobilenetv20_features_linearbottleneck0_relu1_fwd: 3ca9d0bd
mobilenetv20_features_linearbottleneck0_conv2_fwd: 3d0dd74c
mobilenetv20_features_linearbottleneck0_batchnorm2_fwd: 3d1acfcc
mobilenetv20_features_linearbottleneck1_conv0_fwd: 3d04e554
mobilenetv20_features_linearbottleneck1_batchnorm0_fwd: 3cae4213
mobilenetv20_features_linearbottleneck1_relu0_fwd: 3ca7bd8e
mobilenetv20_features_linearbottleneck1_conv1_fwd: 3dbe01ec
mobilenetv20_features_linearbottleneck1_batchnorm1_fwd: 3c979a26
mobilenetv20_features_linearbottleneck1_relu1_fwd: 3c9f655b
mobilenetv20_features_linearbottleneck1_conv2_fwd: 3d078250
mobilenetv20_features_linearbottleneck1_batchnorm2_fwd: 3d21eda0
mobilenetv20_features_linearbottleneck2_conv0_fwd: 3d064f87
mobilenetv20_features_linearbottleneck2_batchnorm0_fwd: 3c87e5fa
mobilenetv20_features_linearbottleneck2_relu0_fwd: 3c3469fd
mobilenetv20_features_linearbottleneck2_conv1_fwd: 3c6be04d
mobilenetv20_features_linearbottleneck2_batchnorm1_fwd: 3c54960c
mobilenetv20_features_linearbottleneck2_relu1_fwd: 3c32683a
mobilenetv20_features_linearbottleneck2_conv2_fwd: 3c50a992
mobilenetv20_features_linearbottleneck2_batchnorm2_fwd: 3cb9006e
mobilenetv20_features_linearbottleneck2_elemwise_add0: 3d31e02f
mobilenetv20_features_linearbottleneck3_conv0_fwd: 3d247409
mobilenetv20_features_linearbottleneck3_batchnorm0_fwd: 3c87bc3b
mobilenetv20_features_linearbottleneck3_relu0_fwd: 3c3d0e73
mobilenetv20_features_linearbottleneck3_conv1_fwd: 3d67f7c9
mobilenetv20_features_linearbottleneck3_batchnorm1_fwd: 3c931c78
mobilenetv20_features_linearbottleneck3_relu1_fwd: 3c778713
mobilenetv20_features_linearbottleneck3_conv2_fwd: 3cddf4c7
mobilenetv20_features_linearbottleneck3_batchnorm2_fwd: 3d0ba453
mobilenetv20_features_linearbottleneck4_conv0_fwd: 3cad490d
mobilenetv20_features_linearbottleneck4_batchnorm0_fwd: 3c1fa789
mobilenetv20_features_linearbottleneck4_relu0_fwd: 3bf3d464
mobilenetv20_features_linearbottleneck4_conv1_fwd: 3b3fbcb2
mobilenetv20_features_linearbottleneck4_batchnorm1_fwd: 3c947b56
mobilenetv20_features_linearbottleneck4_relu1_fwd: 3c36a119
mobilenetv20_features_linearbottleneck4_conv2_fwd: 3c37e198
mobilenetv20_features_linearbottleneck4_batchnorm2_fwd: 3cb7da02
mobilenetv20_features_linearbottleneck4_elemwise_add0: 3d17a5b0
mobilenetv20_features_linearbottleneck5_conv0_fwd: 3ca8fb87
mobilenetv20_features_linearbottleneck5_batchnorm0_fwd: 3c238022
mobilenetv20_features_linearbottleneck5_relu0_fwd: 3c08f6b2
mobilenetv20_features_linearbottleneck5_conv1_fwd: 3b0d0eae
mobilenetv20_features_linearbottleneck5_batchnorm1_fwd: 3c1cef0d
mobilenetv20_features_linearbottleneck5_relu1_fwd: 3c2b191c
mobilenetv20_features_linearbottleneck5_conv2_fwd: 3c0dacda
mobilenetv20_features_linearbottleneck5_batchnorm2_fwd: 3c78218d
mobilenetv20_features_linearbottleneck5_elemwise_add0: 3d0ca22a
mobilenetv20_features_linearbottleneck6_conv0_fwd: 3cf1f356
mobilenetv20_features_linearbottleneck6_batchnorm0_fwd: 3c3e5cb4
mobilenetv20_features_linearbottleneck6_relu0_fwd: 3c2cbd95
mobilenetv20_features_linearbottleneck6_conv1_fwd: 3b9a44e8
mobilenetv20_features_linearbottleneck6_batchnorm1_fwd: 3caab9af
mobilenetv20_features_linearbottleneck6_relu1_fwd: 3c8f1bfe
mobilenetv20_features_linearbottleneck6_conv2_fwd: 3caca27f
mobilenetv20_features_linearbottleneck6_batchnorm2_fwd: 3c76b8dc
mobilenetv20_features_linearbottleneck7_conv0_fwd: 3c35943f
mobilenetv20_features_linearbottleneck7_batchnorm0_fwd: 3c0d7003
mobilenetv20_features_linearbottleneck7_relu0_fwd: 3c09e036
mobilenetv20_features_linearbottleneck7_conv1_fwd: 3b3e01e3
mobilenetv20_features_linearbottleneck7_batchnorm1_fwd: 3c552d2e
mobilenetv20_features_linearbottleneck7_relu1_fwd: 3c5636be
mobilenetv20_features_linearbottleneck7_conv2_fwd: 3c2be3a8
mobilenetv20_features_linearbottleneck7_batchnorm2_fwd: 3c5e77c5
mobilenetv20_features_linearbottleneck7_elemwise_add0: 3cac58b7
mobilenetv20_features_linearbottleneck8_conv0_fwd: 3c7b36d7
mobilenetv20_features_linearbottleneck8_batchnorm0_fwd: 3c0fa2bc
mobilenetv20_features_linearbottleneck8_relu0_fwd: 3c0fa2bc
mobilenetv20_features_linearbottleneck8_conv1_fwd: 3b372615
mobilenetv20_features_linearbottleneck8_batchnorm1_fwd: 3c52ca8d
mobilenetv20_features_linearbottleneck8_relu1_fwd: 3c39f223
mobilenetv20_features_linearbottleneck8_conv2_fwd: 3c2590c8
mobilenetv20_features_linearbottleneck8_batchnorm2_fwd: 3c86a503
mobilenetv20_features_linearbottleneck8_elemwise_add0: 3ce0a53a
mobilenetv20_features_linearbottleneck9_conv0_fwd: 3c9a6891
mobilenetv20_features_linearbottleneck9_batchnorm0_fwd: 3c10dd86
mobilenetv20_features_linearbottleneck9_relu0_fwd: 3c14b45a
mobilenetv20_features_linearbottleneck9_conv1_fwd: 3b38c374
mobilenetv20_features_linearbottleneck9_batchnorm1_fwd: 3c948a4d
mobilenetv20_features_linearbottleneck9_relu1_fwd: 3c30c232
mobilenetv20_features_linearbottleneck9_conv2_fwd: 3c50ef1a
mobilenetv20_features_linearbottleneck9_batchnorm2_fwd: 3d022211
mobilenetv20_features_linearbottleneck9_elemwise_add0: 3d3e79ce
mobilenetv20_features_linearbottleneck10_conv0_fwd: 3d08dcbb
mobilenetv20_features_linearbottleneck10_batchnorm0_fwd: 3c1d579d
mobilenetv20_features_linearbottleneck10_relu0_fwd: 3c2c8cd0
mobilenetv20_features_linearbottleneck10_conv1_fwd: 3cf744da
mobilenetv20_features_linearbottleneck10_batchnorm1_fwd: 3cc060e5
mobilenetv20_features_linearbottleneck10_relu1_fwd: 3c9aec9d
mobilenetv20_features_linearbottleneck10_conv2_fwd: 3ce3b8c4
mobilenetv20_features_linearbottleneck10_batchnorm2_fwd: 3cf1fb80
mobilenetv20_features_linearbottleneck11_conv0_fwd: 3c78b3c9
mobilenetv20_features_linearbottleneck11_batchnorm0_fwd: 3c42ff6e
mobilenetv20_features_linearbottleneck11_relu0_fwd: 3c4383aa
mobilenetv20_features_linearbottleneck11_conv1_fwd: 3b11c825
mobilenetv20_features_linearbottleneck11_batchnorm1_fwd: 3c5f1105
mobilenetv20_features_linearbottleneck11_relu1_fwd: 3c51220c
mobilenetv20_features_linearbottleneck11_conv2_fwd: 3c47783d
mobilenetv20_features_linearbottleneck11_batchnorm2_fwd: 3c88d64f
mobilenetv20_features_linearbottleneck11_elemwise_add0: 3d037990
mobilenetv20_features_linearbottleneck12_conv0_fwd: 3cda9d75
mobilenetv20_features_linearbottleneck12_batchnorm0_fwd: 3c4fe1ee
mobilenetv20_features_linearbottleneck12_relu0_fwd: 3c69cefe
mobilenetv20_features_linearbottleneck12_conv1_fwd: 3af15cb1
mobilenetv20_features_linearbottleneck12_batchnorm1_fwd: 3c945906
mobilenetv20_features_linearbottleneck12_relu1_fwd: 3c9d5f6a
mobilenetv20_features_linearbottleneck12_conv2_fwd: 3cc385ed
mobilenetv20_features_linearbottleneck12_batchnorm2_fwd: 3d6a8190
mobilenetv20_features_linearbottleneck12_elemwise_add0: 3d981f37
mobilenetv20_features_linearbottleneck13_conv0_fwd: 3d876e75
mobilenetv20_features_linearbottleneck13_batchnorm0_fwd: 3cbab9b1
mobilenetv20_features_linearbottleneck13_relu0_fwd: 3ceb7faa
mobilenetv20_features_linearbottleneck13_conv1_fwd: 3d4003da
mobilenetv20_features_linearbottleneck13_batchnorm1_fwd: 3cfb5783
mobilenetv20_features_linearbottleneck13_relu1_fwd: 3cfb5783
mobilenetv20_features_linearbottleneck13_conv2_fwd: 3d244ef2
mobilenetv20_features_linearbottleneck13_batchnorm2_fwd: 3cf407c5
mobilenetv20_features_linearbottleneck14_conv0_fwd: 3c82378c
mobilenetv20_features_linearbottleneck14_batchnorm0_fwd: 3c827cc6
mobilenetv20_features_linearbottleneck14_relu0_fwd: 3c5dc7da
mobilenetv20_features_linearbottleneck14_conv1_fwd: 3b29c7bb
mobilenetv20_features_linearbottleneck14_batchnorm1_fwd: 3d24b6b1
mobilenetv20_features_linearbottleneck14_relu1_fwd: 3d24b6b1
mobilenetv20_features_linearbottleneck14_conv2_fwd: 3ceaf7f1
mobilenetv20_features_linearbottleneck14_batchnorm2_fwd: 3cd0d888
mobilenetv20_features_linearbottleneck14_elemwise_add0: 3d48a66b
mobilenetv20_features_linearbottleneck15_conv0_fwd: 3cee1fe0
mobilenetv20_features_linearbottleneck15_batchnorm0_fwd: 3c8bda88
mobilenetv20_features_linearbottleneck15_relu0_fwd: 3c8bda88
mobilenetv20_features_linearbottleneck15_conv1_fwd: 3bcd0791
mobilenetv20_features_linearbottleneck15_batchnorm1_fwd: 3ceb3d13
mobilenetv20_features_linearbottleneck15_relu1_fwd: 3d057a63
mobilenetv20_features_linearbottleneck15_conv2_fwd: 3cbdb735
mobilenetv20_features_linearbottleneck15_batchnorm2_fwd: 3d207c2d
mobilenetv20_features_linearbottleneck15_elemwise_add0: 3d50d260
mobilenetv20_features_linearbottleneck16_conv0_fwd: 3da4cd0b
mobilenetv20_features_linearbottleneck16_batchnorm0_fwd: 3c91514d
mobilenetv20_features_linearbottleneck16_relu0_fwd: 3bde46b2
mobilenetv20_features_linearbottleneck16_conv1_fwd: 3a9327dc
mobilenetv20_features_linearbottleneck16_batchnorm1_fwd: 3b83e5fd
mobilenetv20_features_linearbottleneck16_relu1_fwd: 3b7b0508
mobilenetv20_features_linearbottleneck16_conv2_fwd: 3bc14785
mobilenetv20_features_linearbottleneck16_batchnorm2_fwd: 3c61c5eb
mobilenetv20_features_conv1_fwd: 3c2ebfd9
mobilenetv20_features_batchnorm1_fwd: 3de6f342
mobilenetv20_features_relu1_fwd: 3df98145
mobilenetv20_features_pool0_fwd: 3df98145
mobilenetv20_output_pred_fwd: 3e6c0f9b
mobilenetv20_output_flatten0_reshape0: 3e6c0f9b
