TRT-6001-EntropyCalibration2
data_0: 4000890a
conv1/7x7_s2_1: 4156d4ee
conv1/7x7_s2_2: 4156d4ee
pool1/3x3_s2_1: 4156d4ee
pool1/norm1_1: 3f966694
conv2/3x3_reduce_1: 40531d41
conv2/3x3_reduce_2: 401afafe
conv2/3x3_1: 40ab3b0d
conv2/3x3_2: 40864cce
conv2/norm2_1: 3f8be311
pool2/3x3_s2_1: 3f8be311
inception_3a/1x1_1: 4043f896
inception_3a/1x1_2: 4095ca78
inception_3a/3x3_reduce_1: 4026793f
inception_3a/3x3_reduce_2: 4028ef9d
inception_3a/3x3_1: 409c6007
inception_3a/3x3_2: 4095ca78
inception_3a/5x5_reduce_1: 403a1a1f
inception_3a/5x5_reduce_2: 40482ad9
inception_3a/5x5_1: 40851b0c
inception_3a/5x5_2: 4095ca78
inception_3a/pool_1: 3f8be311
inception_3a/pool_proj_1: 4091939e
inception_3a/pool_proj_2: 4095ca78
inception_3a/output_1: 4095ca78
inception_3b/1x1_1: 403d5428
inception_3b/1x1_2: 40644790
inception_3b/3x3_reduce_1: 40542e9a
inception_3b/3x3_reduce_2: 405a452e
inception_3b/3x3_1: 4062d3c4
inception_3b/3x3_2: 40644790
inception_3b/5x5_reduce_1: 407f323f
inception_3b/5x5_reduce_2: 40824e73
inception_3b/5x5_1: 40be5714
inception_3b/5x5_2: 40644790
inception_3b/pool_1: 4095ca78
inception_3b/pool_proj_1: 40a1ea9b
inception_3b/pool_proj_2: 40644790
inception_3b/output_1: 40644790
pool3/3x3_s2_1: 40644790
inception_4a/1x1_1: 4049c022
inception_4a/1x1_2: 405eeea7
inception_4a/3x3_reduce_1: 406c2e30
inception_4a/3x3_reduce_2: 4080ab0e
inception_4a/3x3_1: 4090d9a8
inception_4a/3x3_2: 405eeea7
inception_4a/5x5_reduce_1: 40611015
inception_4a/5x5_reduce_2: 40611015
inception_4a/5x5_1: 406a8ffc
inception_4a/5x5_2: 405eeea7
inception_4a/pool_1: 40644790
inception_4a/pool_proj_1: 40948e26
inception_4a/pool_proj_2: 405eeea7
inception_4a/output_1: 405eeea7
inception_4b/1x1_1: 3ffd9f86
inception_4b/1x1_2: 401727d7
inception_4b/3x3_reduce_1: 40049b24
inception_4b/3x3_reduce_2: 401d035a
inception_4b/3x3_1: 3ff59d91
inception_4b/3x3_2: 401727d7
inception_4b/5x5_reduce_1: 402db153
inception_4b/5x5_reduce_2: 402e5e41
inception_4b/5x5_1: 402e0b6b
inception_4b/5x5_2: 401727d7
inception_4b/pool_1: 405eeea7
inception_4b/pool_proj_1: 404773ae
inception_4b/pool_proj_2: 401727d7
inception_4b/output_1: 401727d7
inception_4c/1x1_1: 3feede53
inception_4c/1x1_2: 400a031f
inception_4c/3x3_reduce_1: 400b4652
inception_4c/3x3_reduce_2: 400cf856
inception_4c/3x3_1: 400d8c53
inception_4c/3x3_2: 400a031f
inception_4c/5x5_reduce_1: 402307bd
inception_4c/5x5_reduce_2: 4026d7a2
inception_4c/5x5_1: 4027de49
inception_4c/5x5_2: 400a031f
inception_4c/pool_1: 401727d7
inception_4c/pool_proj_1: 4021fba5
inception_4c/pool_proj_2: 400a031f
inception_4c/output_1: 400a031f
inception_4d/1x1_1: 3fd00f7e
inception_4d/1x1_2: 3fe642a2
inception_4d/3x3_reduce_1: 40000041
inception_4d/3x3_reduce_2: 400e2d06
inception_4d/3x3_1: 400d0762
inception_4d/3x3_2: 3fe642a2
inception_4d/5x5_reduce_1: 3fc8d056
inception_4d/5x5_reduce_2: 3fef36e0
inception_4d/5x5_1: 40047a2f
inception_4d/5x5_2: 3fe642a2
inception_4d/pool_1: 400a031f
inception_4d/pool_proj_1: 40149438
inception_4d/pool_proj_2: 3fe642a2
inception_4d/output_1: 3fe642a2
inception_4e/1x1_1: 3f5b2097
inception_4e/1x1_2: 3f849c92
inception_4e/3x3_reduce_1: 3f5633bd
inception_4e/3x3_reduce_2: 3f6a3ad3
inception_4e/3x3_1: 3f6fe552
inception_4e/3x3_2: 3f849c92
inception_4e/5x5_reduce_1: 3fafab34
inception_4e/5x5_reduce_2: 3fb8b359
inception_4e/5x5_1: 3fa8c3bd
inception_4e/5x5_2: 3f849c92
inception_4e/pool_1: 3fe642a2
inception_4e/pool_proj_1: 3fbccee9
inception_4e/pool_proj_2: 3f849c92
inception_4e/output_1: 3f849c92
pool4/3x3_s2_1: 3f849c92
inception_5a/1x1_1: 3f57d6e4
inception_5a/1x1_2: 3f58482d
inception_5a/3x3_reduce_1: 3f6ef654
inception_5a/3x3_reduce_2: 3f80e39a
inception_5a/3x3_1: 3f733ce2
inception_5a/3x3_2: 3f58482d
inception_5a/5x5_reduce_1: 3fa70d16
inception_5a/5x5_reduce_2: 3fac44d9
inception_5a/5x5_1: 3f87ce74
inception_5a/5x5_2: 3f58482d
inception_5a/pool_1: 3f849c92
inception_5a/pool_proj_1: 3f9c3113
inception_5a/pool_proj_2: 3f58482d
inception_5a/output_1: 3f58482d
inception_5b/1x1_1: 3eb75b24
inception_5b/1x1_2: 3eaf7ad1
inception_5b/3x3_reduce_1: 3f07a433
inception_5b/3x3_reduce_2: 3f0df6c8
inception_5b/3x3_1: 3eb34a5c
inception_5b/3x3_2: 3eaf7ad1
inception_5b/5x5_reduce_1: 3f0aaebb
inception_5b/5x5_reduce_2: 3f0aaebb
inception_5b/5x5_1: 3e9cbebd
inception_5b/5x5_2: 3eaf7ad1
inception_5b/pool_1: 3f58482d
inception_5b/pool_proj_1: 3f0e8bad
inception_5b/pool_proj_2: 3eaf7ad1
inception_5b/output_1: 3eaf7ad1
(Unnamed Layer* 138) [Pooling]_output: 3eaf7ad1
pool5/7x7_s1_1: 3dc5a2da
pool5/7x7_s1_2: 3dc5a2da
OC2_DUMMY_0: 3dc5a2da
(Unnamed Layer* 143) [Constant]_output: 3c6b9c60
(Unnamed Layer* 144) [Constant]_output: 3a87a23a
(Unnamed Layer* 145) [Matrix Multiply]_output: 3e7e39b8
loss3/classifier_1: 3e52cb66
prob_1: 3abdbb77
