TRT-6001-EntropyCalibration2
gpu_0/data_0: 3caa54fc
gpu_0/conv1_1: 3dd3d571
gpu_0/res_conv1_bn_1: 3dc52e66
gpu_0/res_conv1_bn_2: 3dc52e66
gpu_0/pool1_1: 3dc52e66
gpu_0/res2_0_branch2a_1: 3e34884f
gpu_0/res2_0_branch2a_bn_1: 3de20a64
gpu_0/res2_0_branch2a_bn_2: 3d92b4f6
gpu_0/res2_0_branch2b_1: 3dbff08f
gpu_0/res2_0_branch2b_bn_1: 3d99010d
gpu_0/res2_0_branch2b_bn_2: 3d99010d
gpu_0/res2_0_branch2c_1: 3d1bd61c
gpu_0/res2_0_branch2c_bn_1: 3d5f6e51
gpu_0/res2_0_branch1_1: 3de8621e
gpu_0/res2_0_branch1_bn_1: 3deaf47e
gpu_0/res2_0_branch2c_bn_2: 3dfb9d4f
gpu_0/res2_0_branch2c_bn_3: 3d99d186
gpu_0/res2_1_branch2a_1: 3d89c258
gpu_0/res2_1_branch2a_bn_1: 3db24847
gpu_0/res2_1_branch2a_bn_2: 3d756f0c
gpu_0/res2_1_branch2b_1: 3d78a42a
gpu_0/res2_1_branch2b_bn_1: 3dbcdc50
gpu_0/res2_1_branch2b_bn_2: 3dae3f35
gpu_0/res2_1_branch2c_1: 3cba6310
gpu_0/res2_1_branch2c_bn_1: 3d3a4210
gpu_0/res2_1_branch2c_bn_2: 3d6d245b
gpu_0/res2_1_branch2c_bn_3: 3d5aea38
gpu_0/res2_2_branch2a_1: 3d5b0e5b
gpu_0/res2_2_branch2a_bn_1: 3d8e7607
gpu_0/res2_2_branch2a_bn_2: 3d8e5793
gpu_0/res2_2_branch2b_1: 3d7e5704
gpu_0/res2_2_branch2b_bn_1: 3dbca5f3
gpu_0/res2_2_branch2b_bn_2: 3d97cba2
gpu_0/res2_2_branch2c_1: 3c978836
gpu_0/res2_2_branch2c_bn_1: 3d4460aa
gpu_0/res2_2_branch2c_bn_2: 3d82e037
gpu_0/res2_2_branch2c_bn_3: 3d627bc2
gpu_0/res3_0_branch2a_1: 3db06913
gpu_0/res3_0_branch2a_bn_1: 3daf9020
gpu_0/res3_0_branch2a_bn_2: 3d88cdcf
gpu_0/res3_0_branch2b_1: 3d88c4a1
gpu_0/res3_0_branch2b_bn_1: 3d9b8f30
gpu_0/res3_0_branch2b_bn_2: 3da2356f
gpu_0/res3_0_branch2c_1: 3cd1f299
gpu_0/res3_0_branch2c_bn_1: 3d9df2ed
gpu_0/res3_0_branch1_1: 3d489a87
gpu_0/res3_0_branch1_bn_1: 3d9c3972
gpu_0/res3_0_branch2c_bn_2: 3dbd8d2c
gpu_0/res3_0_branch2c_bn_3: 3da8c445
gpu_0/res3_1_branch2a_1: 3da47581
gpu_0/res3_1_branch2a_bn_1: 3d8138fc
gpu_0/res3_1_branch2a_bn_2: 3d620173
gpu_0/res3_1_branch2b_1: 3da5b629
gpu_0/res3_1_branch2b_bn_1: 3db284c5
gpu_0/res3_1_branch2b_bn_2: 3d9cb488
gpu_0/res3_1_branch2c_1: 3ccdfafb
gpu_0/res3_1_branch2c_bn_1: 3d7f5b9c
gpu_0/res3_1_branch2c_bn_2: 3d7f5b9c
gpu_0/res3_1_branch2c_bn_3: 3d868670
gpu_0/res3_2_branch2a_1: 3d6799c4
gpu_0/res3_2_branch2a_bn_1: 3d8188d0
gpu_0/res3_2_branch2a_bn_2: 3d901632
gpu_0/res3_2_branch2b_1: 3dc018bf
gpu_0/res3_2_branch2b_bn_1: 3dadd1aa
gpu_0/res3_2_branch2b_bn_2: 3d8c52a1
gpu_0/res3_2_branch2c_1: 3c9057af
gpu_0/res3_2_branch2c_bn_1: 3d356146
gpu_0/res3_2_branch2c_bn_2: 3d81d931
gpu_0/res3_2_branch2c_bn_3: 3d81d931
gpu_0/res3_3_branch2a_1: 3d6794aa
gpu_0/res3_3_branch2a_bn_1: 3d8f6c73
gpu_0/res3_3_branch2a_bn_2: 3d91e512
gpu_0/res3_3_branch2b_1: 3d628623
gpu_0/res3_3_branch2b_bn_1: 3db151d0
gpu_0/res3_3_branch2b_bn_2: 3d8bd820
gpu_0/res3_3_branch2c_1: 3c729ccc
gpu_0/res3_3_branch2c_bn_1: 3d1bae10
gpu_0/res3_3_branch2c_bn_2: 3d592b6e
gpu_0/res3_3_branch2c_bn_3: 3d592b6e
gpu_0/res4_0_branch2a_1: 3d5a694c
gpu_0/res4_0_branch2a_bn_1: 3da40ec3
gpu_0/res4_0_branch2a_bn_2: 3d8f97fb
gpu_0/res4_0_branch2b_1: 3d409525
gpu_0/res4_0_branch2b_bn_1: 3d8edb39
gpu_0/res4_0_branch2b_bn_2: 3d8edb39
gpu_0/res4_0_branch2c_1: 3cd32b34
gpu_0/res4_0_branch2c_bn_1: 3d627088
gpu_0/res4_0_branch1_1: 3d0ea51a
gpu_0/res4_0_branch1_bn_1: 3d64d306
gpu_0/res4_0_branch2c_bn_2: 3da784d6
gpu_0/res4_0_branch2c_bn_3: 3da784d6
gpu_0/res4_1_branch2a_1: 3da1f886
gpu_0/res4_1_branch2a_bn_1: 3d8f102d
gpu_0/res4_1_branch2a_bn_2: 3d9f8a5f
gpu_0/res4_1_branch2b_1: 3d974e1c
gpu_0/res4_1_branch2b_bn_1: 3d938004
gpu_0/res4_1_branch2b_bn_2: 3d4b8b39
gpu_0/res4_1_branch2c_1: 3c80df9a
gpu_0/res4_1_branch2c_bn_1: 3d462692
gpu_0/res4_1_branch2c_bn_2: 3d8536b9
gpu_0/res4_1_branch2c_bn_3: 3d9146df
gpu_0/res4_2_branch2a_1: 3d3c6903
gpu_0/res4_2_branch2a_bn_1: 3d7d1941
gpu_0/res4_2_branch2a_bn_2: 3d687fae
gpu_0/res4_2_branch2b_1: 3d57e1eb
gpu_0/res4_2_branch2b_bn_1: 3dce180b
gpu_0/res4_2_branch2b_bn_2: 3d5a35d6
gpu_0/res4_2_branch2c_1: 3c5ac789
gpu_0/res4_2_branch2c_bn_1: 3d57ab7b
gpu_0/res4_2_branch2c_bn_2: 3d89cedf
gpu_0/res4_2_branch2c_bn_3: 3d8819a4
gpu_0/res4_3_branch2a_1: 3d2b76af
gpu_0/res4_3_branch2a_bn_1: 3d64423d
gpu_0/res4_3_branch2a_bn_2: 3d8c0e5c
gpu_0/res4_3_branch2b_1: 3d432fb1
gpu_0/res4_3_branch2b_bn_1: 3d9163e3
gpu_0/res4_3_branch2b_bn_2: 3d5b48f2
gpu_0/res4_3_branch2c_1: 3c4c34c8
gpu_0/res4_3_branch2c_bn_1: 3d5fcbe5
gpu_0/res4_3_branch2c_bn_2: 3d670d89
gpu_0/res4_3_branch2c_bn_3: 3d670d89
gpu_0/res4_4_branch2a_1: 3d23715a
gpu_0/res4_4_branch2a_bn_1: 3d6192e5
gpu_0/res4_4_branch2a_bn_2: 3d61ed9e
gpu_0/res4_4_branch2b_1: 3d0bcd2e
gpu_0/res4_4_branch2b_bn_1: 3d85947d
gpu_0/res4_4_branch2b_bn_2: 3d6767da
gpu_0/res4_4_branch2c_1: 3ca5a193
gpu_0/res4_4_branch2c_bn_1: 3d420299
gpu_0/res4_4_branch2c_bn_2: 3d8066bd
gpu_0/res4_4_branch2c_bn_3: 3d8066bd
gpu_0/res4_5_branch2a_1: 3d4445de
gpu_0/res4_5_branch2a_bn_1: 3d86d185
gpu_0/res4_5_branch2a_bn_2: 3d91b080
gpu_0/res4_5_branch2b_1: 3d19c208
gpu_0/res4_5_branch2b_bn_1: 3da49c13
gpu_0/res4_5_branch2b_bn_2: 3da32bc6
gpu_0/res4_5_branch2c_1: 3cae5e52
gpu_0/res4_5_branch2c_bn_1: 3d568070
gpu_0/res4_5_branch2c_bn_2: 3d878535
gpu_0/res4_5_branch2c_bn_3: 3d960b69
gpu_0/res5_0_branch2a_1: 3ceda51d
gpu_0/res5_0_branch2a_bn_1: 3d802ccc
gpu_0/res5_0_branch2a_bn_2: 3d6aae0b
gpu_0/res5_0_branch2b_1: 3cedf750
gpu_0/res5_0_branch2b_bn_1: 3d8dcf87
gpu_0/res5_0_branch2b_bn_2: 3d7ae9a2
gpu_0/res5_0_branch2c_1: 3caf1f62
gpu_0/res5_0_branch2c_bn_1: 3e2fe88b
gpu_0/res5_0_branch1_1: 3c9dd71d
gpu_0/res5_0_branch1_bn_1: 3e085b0c
gpu_0/res5_0_branch2c_bn_2: 3e869a50
gpu_0/res5_0_branch2c_bn_3: 3e902de5
gpu_0/res5_1_branch2a_1: 3e191e69
gpu_0/res5_1_branch2a_bn_1: 3d90a061
gpu_0/res5_1_branch2a_bn_2: 3d609a83
gpu_0/res5_1_branch2b_1: 3d1e2db4
gpu_0/res5_1_branch2b_bn_1: 3d74d4a1
gpu_0/res5_1_branch2b_bn_2: 3d2a48e3
gpu_0/res5_1_branch2c_1: 3c4aceed
gpu_0/res5_1_branch2c_bn_1: 3dc2f2c7
gpu_0/res5_1_branch2c_bn_2: 3e6587d1
gpu_0/res5_1_branch2c_bn_3: 3e925ab7
gpu_0/res5_2_branch2a_1: 3e3357a0
gpu_0/res5_2_branch2a_bn_1: 3d9339c8
gpu_0/res5_2_branch2a_bn_2: 3d6b6029
gpu_0/res5_2_branch2b_1: 3ce5ba60
gpu_0/res5_2_branch2b_bn_1: 3d866f78
gpu_0/res5_2_branch2b_bn_2: 3d54df46
gpu_0/res5_2_branch2c_1: 3c08540c
gpu_0/res5_2_branch2c_bn_1: 3e110a69
gpu_0/res5_2_branch2c_bn_2: 3e750bf1
gpu_0/res5_2_branch2c_bn_3: 3ec805a6
gpu_0/pool5_1: 3ec805a6
OC2_DUMMY_0: 3d9942c2
(Unnamed Layer* 174) [Constant]_output: 3996cbd8
(Unnamed Layer* 175) [Constant]_output: 3b64f8bc
(Unnamed Layer* 176) [Matrix Multiply]_output: 3e5b5330
gpu_0/pred_1: 3e526e4b
gpu_0/softmax_1: 3afb76dc
